TRT-7202-EntropyCalibration2
data: 3c008912
conv1: 3c60dd38
pool1: 3c60dd38
conv2: 3d895e44
pool2: 3d895e44
(Unnamed Layer* 4) [Fully Connected]_output: 3d65992f
ip1: 3d65ff18
ip2: 3e11094c
prob: 3c083ffd
